TRT-100300-EntropyCalibration2
input: 3c09a343
/model/backbone/model/conv1/Conv_output_0: 3d864f38
/model/backbone/model/relu/Relu_output_0: 3d864f38
/model/backbone/model/maxpool/MaxPool_output_0: 3d864f38
/model/backbone/model/layer1/layer1.0/conv1/Conv_output_0: 3d866365
/model/backbone/model/layer1/layer1.0/relu/Relu_output_0: 3d1b6d72
/model/backbone/model/layer1/layer1.0/conv2/Conv_output_0: 3d0e07e6
/model/backbone/model/layer1/layer1.0/Add_output_0: 3dc433f4
/model/backbone/model/layer1/layer1.0/relu_1/Relu_output_0: 3dce88ec
/model/backbone/model/layer1/layer1.1/conv1/Conv_output_0: 3d927111
/model/backbone/model/layer1/layer1.1/relu/Relu_output_0: 3d01a6fd
/model/backbone/model/layer1/layer1.1/conv2/Conv_output_0: 3d5b4230
/model/backbone/model/layer1/layer1.1/Add_output_0: 3dcc6f56
/model/backbone/model/layer1/layer1.1/relu_1/Relu_output_0: 3dd7cf5a
/model/backbone/model/layer1/layer1.2/conv1/Conv_output_0: 3d39ecc4
/model/backbone/model/layer1/layer1.2/relu/Relu_output_0: 3cd42aba
/model/backbone/model/layer1/layer1.2/conv2/Conv_output_0: 3cd3675b
/model/backbone/model/layer1/layer1.2/Add_output_0: 3dc8a637
/model/backbone/model/layer1/layer1.2/relu_1/Relu_output_0: 3dc8a637
/model/backbone/model/layer2/layer2.0/conv1/Conv_output_0: 3d3b70a6
/model/backbone/model/layer2/layer2.0/relu/Relu_output_0: 3d0eceab
/model/backbone/model/layer2/layer2.0/conv2/Conv_output_0: 3c4bbd04
/model/backbone/model/layer2/layer2.0/downsample/downsample.0/Conv_output_0: 3d798c77
/model/backbone/model/layer2/layer2.0/Add_output_0: 3d8a57af
/model/backbone/model/layer2/layer2.0/relu_1/Relu_output_0: 3d89e59f
/model/backbone/model/layer2/layer2.1/conv1/Conv_output_0: 3d028d62
/model/backbone/model/layer2/layer2.1/relu/Relu_output_0: 3cb6b31a
/model/backbone/model/layer2/layer2.1/conv2/Conv_output_0: 3d51d515
/model/backbone/model/layer2/layer2.1/Add_output_0: 3d5b536a
/model/backbone/model/layer2/layer2.1/relu_1/Relu_output_0: 3d5e5887
/model/backbone/model/layer2/layer2.2/conv1/Conv_output_0: 3ccb0bc2
/model/backbone/model/layer2/layer2.2/relu/Relu_output_0: 3ca2bf29
/model/backbone/model/layer2/layer2.2/conv2/Conv_output_0: 3c952b50
/model/backbone/model/layer2/layer2.2/Add_output_0: 3d390bc6
/model/backbone/model/layer2/layer2.2/relu_1/Relu_output_0: 3d4cde41
/model/backbone/model/layer2/layer2.3/conv1/Conv_output_0: 3c628bcb
/model/backbone/model/layer2/layer2.3/relu/Relu_output_0: 3c45df97
/model/backbone/model/layer2/layer2.3/conv2/Conv_output_0: 3c066015
/model/backbone/model/layer2/layer2.3/Add_output_0: 3d22d711
/model/backbone/model/layer2/layer2.3/relu_1/Relu_output_0: 3d32812a
/model/backbone/model/layer3/layer3.0/conv1/Conv_output_0: 3c91f3b3
/model/backbone/model/layer3/layer3.0/relu/Relu_output_0: 3c953bc4
/model/backbone/model/layer3/layer3.0/conv2/Conv_output_0: 3c52234b
/model/backbone/model/layer3/layer3.0/downsample/downsample.0/Conv_output_0: 3c6a57c6
/model/backbone/model/layer3/layer3.0/Add_output_0: 3cbef867
/model/backbone/model/layer3/layer3.0/relu_1/Relu_output_0: 3cbf2c62
/model/backbone/model/layer3/layer3.1/conv1/Conv_output_0: 3c1595a3
/model/backbone/model/layer3/layer3.1/relu/Relu_output_0: 3c019f12
/model/backbone/model/layer3/layer3.1/conv2/Conv_output_0: 3c278554
/model/backbone/model/layer3/layer3.1/Add_output_0: 3c911610
/model/backbone/model/layer3/layer3.1/relu_1/Relu_output_0: 3c9c5791
/model/backbone/model/layer3/layer3.2/conv1/Conv_output_0: 3c21f5fa
/model/backbone/model/layer3/layer3.2/relu/Relu_output_0: 3ba5535d
/model/backbone/model/layer3/layer3.2/conv2/Conv_output_0: 3c04c129
/model/backbone/model/layer3/layer3.2/Add_output_0: 3c7d479f
/model/backbone/model/layer3/layer3.2/relu_1/Relu_output_0: 3c92182d
/model/backbone/model/layer3/layer3.3/conv1/Conv_output_0: 3c025f5c
/model/backbone/model/layer3/layer3.3/relu/Relu_output_0: 3ba1f733
/model/backbone/model/layer3/layer3.3/conv2/Conv_output_0: 3c061513
/model/backbone/model/layer3/layer3.3/Add_output_0: 3c8528d4
/model/backbone/model/layer3/layer3.3/relu_1/Relu_output_0: 3c8a9ede
/model/backbone/model/layer3/layer3.4/conv1/Conv_output_0: 3c19e276
/model/backbone/model/layer3/layer3.4/relu/Relu_output_0: 3beaecb9
/model/backbone/model/layer3/layer3.4/conv2/Conv_output_0: 3c32fd96
/model/backbone/model/layer3/layer3.4/Add_output_0: 3c8e61d7
/model/backbone/model/layer3/layer3.4/relu_1/Relu_output_0: 3ca13b20
/model/backbone/model/layer3/layer3.5/conv1/Conv_output_0: 3bfda847
/model/backbone/model/layer3/layer3.5/relu/Relu_output_0: 3bf23eb9
/model/backbone/model/layer3/layer3.5/conv2/Conv_output_0: 3c0ec0fa
/model/backbone/model/layer3/layer3.5/Add_output_0: 3c8a39c8
/model/backbone/model/layer3/layer3.5/relu_1/Relu_output_0: 3c9a5288
/model/backbone/model/layer4/layer4.0/conv1/Conv_output_0: 3c1cb204
/model/backbone/model/layer4/layer4.0/relu/Relu_output_0: 3c00eddf
/model/backbone/model/layer4/layer4.0/conv2/Conv_output_0: 3c8d24fd
/model/backbone/model/layer4/layer4.0/downsample/downsample.0/Conv_output_0: 3c79e570
/model/backbone/model/layer4/layer4.0/Add_output_0: 3cc272b9
/model/backbone/model/layer4/layer4.0/relu_1/Relu_output_0: 3ce9a0a2
/model/backbone/model/layer4/layer4.1/conv1/Conv_output_0: 3bd0d76e
/model/backbone/model/layer4/layer4.1/relu/Relu_output_0: 3b8305ce
/model/backbone/model/layer4/layer4.1/conv2/Conv_output_0: 3c6f4d8b
/model/backbone/model/layer4/layer4.1/Add_output_0: 3cee726c
/model/backbone/model/layer4/layer4.1/relu_1/Relu_output_0: 3cfe61f0
/model/backbone/model/layer4/layer4.2/conv1/Conv_output_0: 3bb30adc
/model/backbone/model/layer4/layer4.2/relu/Relu_output_0: 3b8786d5
/model/backbone/model/layer4/layer4.2/conv2/Conv_output_0: 3c847d6b
/model/backbone/model/layer4/layer4.2/Add_output_0: 3d10ed41
/model/backbone/model/layer4/layer4.2/relu_1/Relu_output_0: 3d1f1171
/model/neck/lateral_convs.0/conv/Conv_output_0: 3d34e02a
/model/neck/lateral_convs.1/conv/Conv_output_0: 3d03c922
/model/neck/lateral_convs.2/conv/Conv_output_0: 3e016e1c
/model/neck/Resize_output_0: 3e016e1c
/model/neck/Add_output_0: 3e0946c9
/model/neck/Resize_1_output_0: 3e0946c9
/model/neck/Add_1_output_0: 3dfe0cd7
/model/neck/fpn_convs.0/conv/Conv_output_0: 3e783810
/model/neck/fpn_convs.1/conv/Conv_output_0: 3e4230c3
/model/neck/fpn_convs.2/conv/Conv_output_0: 3e215d47
/model/neck/lrf_block/dir/dir_convs.0/dir_convs.0.0/Conv_output_0: 3d0e7cec
/model/neck/lrf_block/dir/dir_convs.0/dir_convs.0.2/Relu_output_0: 3d0e7cec
/model/neck/lrf_block/dir/dir_convs.1/dir_convs.1.0/Conv_output_0: 3d2b085a
/model/neck/lrf_block/dir/dir_convs.1/dir_convs.1.2/Relu_output_0: 3d01961c
/model/neck/lrf_block/dir/dir_convs.2/dir_convs.2.0/dir_convs.2.0.0/Conv_output_0: 3d143508
/model/neck/lrf_block/dir/dir_convs.2/dir_convs.2.0/dir_convs.2.0.2/Relu_output_0: 3d120527
/model/neck/lrf_block/dir/dir_convs.2/dir_convs.2.1/dir_convs.2.1.0/Conv_output_0: 3cdd063c
/model/neck/lrf_block/dir/dir_convs.2/dir_convs.2.1/dir_convs.2.1.2/Relu_output_0: 3c32c8bd
/model/neck/lrf_block/dir/dir_convs.3/dir_convs.3.0/dir_convs.3.0.0/Conv_output_0: 3d1ed401
/model/neck/lrf_block/dir/dir_convs.3/dir_convs.3.0/dir_convs.3.0.2/Relu_output_0: 3d1ed401
/model/neck/lrf_block/dir/dir_convs.3/dir_convs.3.1/dir_convs.3.1.0/Conv_output_0: 3c2d9b00
/model/neck/lrf_block/dir/dir_convs.3/dir_convs.3.1/dir_convs.3.1.2/Relu_output_0: 3c0372cd
/model/neck/lrf_block/dir/Concat_output_0: 3ce24372
/model/neck/lrf_block/dir/attn_conv/attn_conv.0/Conv_output_0: 3d830f2d
/model/neck/lrf_block/dir/attn_conv/attn_conv.2/Sigmoid_output_0: 3bfd8411
/model/neck/lrf_block/dir/Mul_output_0: 3e299c1b
/model/neck/lrf_block/Sigmoid_output_0_output: 3b08060b
ONNXTRT_Broadcast_output: 3b08060b
/model/neck/lrf_block/Mul_output_0: 3d32ca36
/model/neck/lrf_block/Add_1_output_0: 3e6cb617
/model/neck/lrf_block/Where_output_0: 3e6cb617
/model/neck/lrf_block/Cast_output_0: 3e6cb617
/model/neck/lrf_block/Where_1_output_0: 3e6cb617
/model/neck/lrf_block/Cast_3_output_0: 3e6cb617
/model/neck/lrf_block/Where_2_output_0: 3e6cb617
/model/neck/lrf_block/dir/dir_convs.0/dir_convs.0.0_1/Conv_output_0: 3ccb8a10
/model/neck/lrf_block/dir/dir_convs.0/dir_convs.0.2_1/Relu_output_0: 3cba54f8
/model/neck/lrf_block/dir/dir_convs.1/dir_convs.1.0_1/Conv_output_0: 3cc7474e
/model/neck/lrf_block/dir/dir_convs.1/dir_convs.1.2_1/Relu_output_0: 3cc7474e
/model/neck/lrf_block/dir/dir_convs.2/dir_convs.2.0/dir_convs.2.0.0_1/Conv_output_0: 3d0dfc4f
/model/neck/lrf_block/dir/dir_convs.2/dir_convs.2.0/dir_convs.2.0.2_1/Relu_output_0: 3d0d92cd
/model/neck/lrf_block/dir/dir_convs.2/dir_convs.2.1/dir_convs.2.1.0_1/Conv_output_0: 3c216799
/model/neck/lrf_block/dir/dir_convs.2/dir_convs.2.1/dir_convs.2.1.2_1/Relu_output_0: 3c03af22
/model/neck/lrf_block/dir/dir_convs.3/dir_convs.3.0/dir_convs.3.0.0_1/Conv_output_0: 3cd7afa5
/model/neck/lrf_block/dir/dir_convs.3/dir_convs.3.0/dir_convs.3.0.2_1/Relu_output_0: 3ccd4d06
/model/neck/lrf_block/dir/dir_convs.3/dir_convs.3.1/dir_convs.3.1.0_1/Conv_output_0: 3bfdd05c
/model/neck/lrf_block/dir/dir_convs.3/dir_convs.3.1/dir_convs.3.1.2_1/Relu_output_0: 3bff09b3
/model/neck/lrf_block/dir_1/Concat_output_0: 3cab9fc7
/model/neck/lrf_block/dir/attn_conv/attn_conv.0_1/Conv_output_0: 3d499270
/model/neck/lrf_block/dir/attn_conv/attn_conv.2_1/Sigmoid_output_0: 3c00ef1f
/model/neck/lrf_block/dir_1/Mul_output_0: 3e130082
ONNXTRT_Broadcast_11_output: 3b08060b
/model/neck/lrf_block_1/Mul_output_0: 3d1af55d
/model/neck/lrf_block_1/Add_1_output_0: 3e4f49a9
/model/neck/lrf_block_1/Where_output_0: 3e4f49a9
/model/neck/lrf_block_1/Cast_output_0: 3e4f49a9
/model/neck/lrf_block_1/Where_1_output_0: 3e4f49a9
/model/neck/lrf_block_1/Cast_3_output_0: 3e4f49a9
/model/neck/lrf_block_1/Where_2_output_0: 3e4f49a9
/model/heads/GridSample_output_0: 3e28e4ad
/model/heads/Transpose_output_0: 3e28e4ad
/model/heads/Reshape_2_output_0: 3e28e4ad
/model/heads/roi_gather/convs.0/conv/Conv_output_0: 3c6382cc
/model/heads/roi_gather/convs.0/activate/Relu_output_0: 3c6382cc
/model/heads/roi_gather/catconv.0/conv/Conv_output_0: 3c9e3181
/model/heads/roi_gather/catconv.0/activate/Relu_output_0: 3ca46fc1
/model/heads/roi_gather/Reshape_output_0: 3ca46fc1
model.heads.roi_gather.fc.weight_output: 3b875776
/model/heads/roi_gather/fc/Gemm_output: 3eb49b78
model.heads.roi_gather.fc.bias_output: 3a7791cd
ONNXTRT_Broadcast_25_output: 3a7791cd
/model/heads/roi_gather/fc/Gemm_output_0: 3eb50c6b
predictions: 3cba8e1d
/model/heads/roi_gather/fc_norm/LayerNormalization_output_0: 3cdf9607
/model/heads/roi_gather/Relu_output_0: 3cb20637
/model/heads/roi_gather/Reshape_1_output_0: 3cb20637
/model/heads/roi_gather/f_value/Conv_output_0: 3e0f84b6
/model/heads/roi_gather/resize/Resize_output_0: 3e0f84b6
/model/heads/roi_gather/resize/Reshape_output_0: 3e0f84b6
ONNXTRT_unsqueezeTensor_output: 3cb20637
/model/heads/roi_gather/f_query/f_query.0/Conv_output: 3c770543
/model/heads/roi_gather/f_query/f_query.0/Conv_output_0: 3c770543
/model/heads/roi_gather/f_query/f_query.1/Relu_output_0: 3c62f9b8
/model/heads/roi_gather/f_key/conv/Conv_output_0: 3cd863ad
/model/heads/roi_gather/f_key/activate/Relu_output_0: 3cd863ad
/model/heads/roi_gather/Transpose_output_0: 3e0f84b6
/model/heads/roi_gather/resize_1/Resize_output_0: 3cd863ad
/model/heads/roi_gather/resize_1/Reshape_output_0: 3cd863ad
/model/heads/roi_gather/MatMul_output_0: 3e994b9b
/model/heads/roi_gather/Constant_2_output_0_output: 3a810a14
ONNXTRT_Broadcast_37_output: 3a810a14
/model/heads/roi_gather/Mul_output_0: 3d194b9b
/model/heads/roi_gather/Softmax_output: 38c96bbf
/model/heads/roi_gather/Softmax_output_0: 38c96bbf
/model/heads/roi_gather/MatMul_1_output_0: 3d5fef43
ONNXTRT_unsqueezeTensor_40_output: 3d5fef43
/model/heads/roi_gather/W/Conv_output: 3c065a95
/model/heads/roi_gather/W/Conv_output_0: 3c065a95
/model/heads/roi_gather/Add_output_0: 3c9f601d
/model/heads/Reshape_4_output_0: 3c9f601d
model.heads.cls_modules.0.weight_output: 3bbabd04
/model/heads/cls_modules.0/Gemm_output: 3d030c53
model.heads.cls_modules.0.bias_output: 3a9c1529
ONNXTRT_Broadcast_45_output: 3a9c1529
/model/heads/cls_modules.0/Gemm_output_0: 3d03fae2
/model/heads/cls_modules.1/Relu_output_0: 3cb1d3d4
model.heads.cls_modules.2.weight_output: 3baad097
/model/heads/cls_modules.2/Gemm_output: 3d0ed3dd
model.heads.cls_modules.2.bias_output: 3a9724db
ONNXTRT_Broadcast_47_output: 3a9724db
/model/heads/cls_modules.2/Gemm_output_0: 3d1f261a
/model/heads/cls_modules.3/Relu_output_0: 3ca9bdb3
model.heads.reg_modules.0.weight_output: 3b20c9e7
/model/heads/reg_modules.0/Gemm_output: 3cab57e9
model.heads.reg_modules.0.bias_output: 3a84b024
ONNXTRT_Broadcast_49_output: 3a84b024
/model/heads/reg_modules.0/Gemm_output_0: 3c98b7a7
/model/heads/reg_modules.1/Relu_output_0: 3c355f58
model.heads.reg_modules.2.weight_output: 3b108057
/model/heads/reg_modules.2/Gemm_output: 3bf88c94
model.heads.reg_modules.2.bias_output: 3a94b756
ONNXTRT_Broadcast_51_output: 3a94b756
/model/heads/reg_modules.2/Gemm_output_0: 3c029719
/model/heads/reg_modules.3/Relu_output_0: 3bab0714
model.heads.cls_layers.weight_output: 3b9f47fe
/model/heads/cls_layers/Gemm_output: 3cc2cc93
model.heads.cls_layers.bias_output: 38a30ff5
ONNXTRT_Broadcast_53_output: 38a30ff5
/model/heads/cls_layers/Gemm_output_0: 3cdbb9f7
model.heads.reg_layers.weight_output: 3ae4ca4f
/model/heads/reg_layers/Gemm_output: 3a94d9cb
model.heads.reg_layers.bias_output: 3add5f45
ONNXTRT_Broadcast_55_output: 3add5f45
/model/heads/reg_layers/Gemm_output_0: 3a7d1e88
/model/heads/Reshape_5_output_0: 3cdbb9f7
/model/heads/Reshape_6_output_0: 3a7d1e88
/model/heads/ScatterND_output_0: 3cb8fb42
/model/heads/Mul_59_output_0: 40e2361f
/model/heads/reg_modules.2_2/Gemm_output: 3bae010e
/model/heads/reg_modules.1_2/Relu_output_0: 3c2391e8
/model/heads/roi_gather_2/Mul_1_output_0: 3ce90bd6
/model/heads/Reshape_34_output_0: 3bff489a
/model/heads/GridSample_2_output_0: 3e630e02
/model/heads/roi_gather/resize_4/Resize_output_0: 3db73ebd
ONNXTRT_Broadcast_358_output: 3c810a14
/model/heads/Slice_30_output_0: 3c6a65ed
ONNXTRT_Broadcast_393_output: 3a94b756
/model/heads/roi_gather_2/Reshape_output_0: 3cf00f77
/model/heads/Gather_18_output_0: 3be944cd
/model/heads/Div_2_output_0: 40f96233
/model/heads/Add_35_output_0: 3cc6d00a
ONNXTRT_Broadcast_309_output: 3ccab1d0
/model/heads/Concat_52_output_0: 3c01afea
/model/heads/reg_modules.0_2/Gemm_output_0: 3c91d8b2
/model/heads/cls_modules.2_2/Gemm_output: 3d0818de
/model/heads/Div_3_output_0: 3c7af1a3
/model/heads/Add_23_output_0: 4143ce0b
/model/heads/Reshape_31_output_0: 3cc4d58b
/model/heads/Slice_4_output_0: 3c04f536
/model/heads/roi_gather/f_key/activate_2/Relu_output_0: 3cf9ebf1
/model/heads/cls_layers_2/Gemm_output_0: 3cc4d58b
/model/heads/roi_gather_2/Reshape_1_output_0: 3c90beed
ONNXTRT_Broadcast_379_output: 3a810a14
/model/heads/roi_gather_2/Softmax_output_0: 380509dd
/model/heads/roi_gather/resize_5/Reshape_output_0: 3ca89924
/model/heads/roi_gather/fc_norm_2/LayerNormalization_output_0: 3cfacccc
/model/heads/cls_layers_2/Gemm_output: 3cc152bf
/model/heads/reg_layers_2/Gemm_output_0: 3a86169e
/model/heads/roi_gather_2/Concat_output_0: 3c9af60c
/model/heads/roi_gather_2/Relu_output_0: 3c90beed
/model/heads/roi_gather/convs.2/activate/Relu_output_0: 3bf0c41a
/model/heads/Sub_11_output_0: 3c11c8ae
/model/heads/Unsqueeze_106_output_0: 3bfd229f
/model/heads/roi_gather/fc_2/Gemm_output_0: 3f21dd67
/model/heads/Slice_46_output_0: 391cab86
/model/heads/reg_modules.2_2/Gemm_output_0: 3bbc4286
/model/heads/roi_gather_2/Softmax_output: 380509dd
/model/heads/Gather_26_output_0: 3ba62e36
ONNXTRT_Broadcast_313_output: 40c95f3a
/model/heads/Tile_10_output_0: 3bd35cd9
ONNXTRT_Broadcast_364_output: 3a7791cd
/model/heads/roi_gather/f_query/f_query.0_2/Conv_output_0: 3c8eb7f2
/model/heads/Slice_5_output_0: 3a9caba9
/model/heads/Add_2_output_0: 3c055ee1
/model/heads/Gather_23_output_0: 3bff489a
/model/heads/cls_modules.0_2/Gemm_output: 3d040116
/model/heads/Gather_4_output_0: 3bff6c2c
/model/heads/Reshape_10_output_0: 3bff6c2c
/model/heads/ScatterND_3_output_0: 3cb9de29
/model/heads/cls_modules.1_2/Relu_output_0: 3cb44a3d
/model/heads/Gather_6_output_0: 3c0a5149
/model/heads/Unsqueeze_28_output_0: 3c0a5149
/model/heads/Tile_3_output_0: 3c0a5149
/model/heads/Constant_102_output_0_output: 40c95f3a
ONNXTRT_Broadcast_126_output: 40c95f3a
/model/heads/Mul_16_output_0: 40d7d9d8
/model/heads/Tile_13_output_0: 3c10f4de
/model/heads/roi_gather/catconv.2/activate/Relu_output_0: 3cf00f77
/model/heads/Gather_7_output_0: 3bacea83
/model/heads/Unsqueeze_33_output_0: 3bacea83
/model/heads/Tile_5_output_0: 3bacea83
/model/heads/Sub_2_output_0_output: 3c010a14
/model/heads/Sub_3_output_0: 3c0f389f
/model/heads/Constant_108_output_0_output: 40214c99
ONNXTRT_Broadcast_131_output: 40214c99
/model/heads/Mul_17_output_0: 403306c8
/model/heads/Unsqueeze_69_output_0: 3bd35cd9
/model/heads/Unsqueeze_70_output_0: 3be944cd
/model/heads/Gather_8_output_0: 3bf709e0
/model/heads/Unsqueeze_34_output_0: 3bf709e0
/model/heads/Tile_6_output_0: 3bf709e0
/model/heads/Constant_112_output_0_output: 3ccab1d0
ONNXTRT_Broadcast_136_output: 3ccab1d0
/model/heads/Mul_18_output_0: 3cc2060d
/model/heads/Constant_113_output_0_output: 33a9226d
ONNXTRT_Broadcast_138_output: 33a9226d
/model/heads/Add_9_output_0: 3cc2063a
/model/heads/Tan_output_0: 4123547c
/model/heads/Div_output_0: 40d0e86a
/model/heads/Add_10_output_0: 414acea0
ONNXTRT_Broadcast_140_output: 40c95f3a
/model/heads/Div_1_output_0: 3c81f582
/model/heads/ScatterND_4_output_0: 3cc78483
/model/heads/roi_gather_2/MatMul_output_0: 3e690bd6
ONNXTRT_Broadcast_391_output: 3a84b024
/model/heads/Gather_9_output_0: 3c81f582
/model/heads/Unsqueeze_105_output_0: 3ba62e36
/model/heads/Sub_8_output_0: 3ce2894a
/model/heads/Gather_19_output_0: 3c6a65ed
ONNXTRT_Broadcast_389_output: 3a9724db
/model/heads/Slice_34_output_0: 3c04f4a9
/model/heads/roi_gather/resize_5/Resize_output_0: 3ca89924
/model/heads/Unsqueeze_100_output_0: 3c10f4de
/model/heads/roi_gather/fc_2/Gemm_output: 3f23c7e8
/model/heads/Gather_25_output_0: 3c10f4de
/model/heads/Reshape_24_output_0: 3c6a65ed
/model/heads/ScatterND_13_output_0: 3cc842af
ONNXTRT_Broadcast_395_output: 38a30ff5
/model/heads/Tan_1_output_0: 449f2416
ONNXTRT_Broadcast_304_output: 40214c99
/model/heads/Gather_17_output_0: 3bd35cd9
/model/heads/Mul_61_output_0: 3cc6cfdd
/model/heads/Div_4_output_0: 4129293a
/model/heads/roi_gather/catconv.2/conv/Conv_output_0: 3cf79126
/model/heads/Tile_11_output_0: 3be944cd
/model/heads/Add_22_output_0: 3cb735a1
/model/heads/Reshape_26_output_0: 3e630e02
ONNXTRT_Broadcast_311_output: 33a9226d
/model/heads/reg_modules.0_2/Gemm_output: 3c99f991
/model/heads/Mul_38_output_0: 40d184cf
/model/heads/Tile_16_output_0: 3bfd229f
/model/heads/Tile_8_output_0: 3c064285
/model/heads/Gather_27_output_0: 3bfd229f
/model/heads/Slice_15_output_0: 3c81f582
/model/heads/Reshape_12_output_0: 3c81f582
/model/heads/Constant_21_output_0_output: 3c810a14
ONNXTRT_Broadcast_185_output: 3c810a14
/model/heads/Mul_23_output_0: 3d01f582
/model/heads/Constant_22_output_0_output: 3c010a14
ONNXTRT_Broadcast_187_output: 3c010a14
/model/heads/Sub_4_output_0: 3cc2a290
/model/heads/Sub_5_output_0_output: 3c010a14
/model/heads/Concat_30_output_0: 3c01c1b5
/model/heads/GridSample_1_output_0: 3e5f8f16
/model/heads/Transpose_1_output_0: 3e5f8f16
/model/heads/Reshape_14_output_0: 3e5f8f16
/model/heads/roi_gather/convs.1/conv/Conv_output_0: 3cb0d9b6
/model/heads/roi_gather/convs.1/activate/Relu_output_0: 3c857711
/model/heads/roi_gather_1/Concat_output_0: 3c857711
/model/heads/roi_gather/catconv.1/conv/Conv_output_0: 3cd18675
/model/heads/roi_gather/catconv.1/activate/Relu_output_0: 3c9b512a
/model/heads/roi_gather_1/Reshape_output_0: 3c9b512a
/model/heads/roi_gather/fc_1/Gemm_output: 3f1c087d
ONNXTRT_Broadcast_191_output: 3a7791cd
/model/heads/roi_gather/fc_1/Gemm_output_0: 3f19d83e
/model/heads/roi_gather/fc_norm_1/LayerNormalization_output_0: 3d05f216
/model/heads/roi_gather_1/Relu_output_0: 3c961ad1
/model/heads/roi_gather_1/Reshape_1_output_0: 3c961ad1
/model/heads/roi_gather/f_value_1/Conv_output_0: 3df1f27f
/model/heads/roi_gather/resize_2/Resize_output_0: 3dfda84c
/model/heads/roi_gather/resize_2/Reshape_output_0: 3dfda84c
ONNXTRT_unsqueezeTensor_201_output: 3c961ad1
/model/heads/roi_gather/f_query/f_query.0_1/Conv_output: 3c757110
/model/heads/roi_gather/f_query/f_query.0_1/Conv_output_0: 3c757110
/model/heads/roi_gather/f_query/f_query.1_1/Relu_output_0: 3c51d0ea
/model/heads/roi_gather/f_key/conv_1/Conv_output_0: 3ce32dba
/model/heads/roi_gather/f_key/activate_1/Relu_output_0: 3ce32dba
/model/heads/roi_gather_1/Transpose_output_0: 3dfda84c
/model/heads/roi_gather/resize_3/Resize_output_0: 3cfebaf8
/model/heads/roi_gather/resize_3/Reshape_output_0: 3cfebaf8
/model/heads/roi_gather_1/MatMul_output_0: 3e73c6ed
ONNXTRT_Broadcast_206_output: 3a810a14
/model/heads/roi_gather_1/Mul_1_output_0: 3cf3c6ed
/model/heads/roi_gather_1/Softmax_output: 3804db27
/model/heads/roi_gather_1/Softmax_output_0: 3804db27
/model/heads/roi_gather_1/MatMul_1_output_0: 3cb62384
ONNXTRT_unsqueezeTensor_209_output: 3cb62384
/model/heads/roi_gather/W_1/Conv_output: 3baf21b5
/model/heads/roi_gather/W_1/Conv_output_0: 3baf21b5
/model/heads/roi_gather_1/Add_output_0: 3c9af5a3
/model/heads/Reshape_16_output_0: 3c9af5a3
/model/heads/cls_modules.0_1/Gemm_output: 3d004267
ONNXTRT_Broadcast_214_output: 3a9c1529
/model/heads/cls_modules.0_1/Gemm_output_0: 3d0082aa
/model/heads/cls_modules.1_1/Relu_output_0: 3ca3aca2
/model/heads/cls_modules.2_1/Gemm_output: 3d0deb4b
ONNXTRT_Broadcast_216_output: 3a9724db
/model/heads/cls_modules.2_1/Gemm_output_0: 3d150cc6
/model/heads/cls_modules.3_1/Relu_output_0: 3c97d002
/model/heads/reg_modules.0_1/Gemm_output: 3c99815d
ONNXTRT_Broadcast_218_output: 3a84b024
/model/heads/reg_modules.0_1/Gemm_output_0: 3c9b7a7c
/model/heads/reg_modules.1_1/Relu_output_0: 3c20cf04
/model/heads/reg_modules.2_1/Gemm_output: 3baecab4
ONNXTRT_Broadcast_220_output: 3a94b756
/model/heads/reg_modules.2_1/Gemm_output_0: 3bbece59
/model/heads/reg_modules.3_1/Relu_output_0: 3b586463
/model/heads/cls_layers_1/Gemm_output: 3cceae08
ONNXTRT_Broadcast_222_output: 38a30ff5
/model/heads/cls_layers_1/Gemm_output_0: 3cd07298
/model/heads/reg_layers_1/Gemm_output: 3a9ce337
ONNXTRT_Broadcast_224_output: 3add5f45
/model/heads/reg_layers_1/Gemm_output_0: 3aa8f9fe
/model/heads/Reshape_18_output_0: 3aa8f9fe
/model/heads/Reshape_19_output_0: 3cd07298
/model/heads/ScatterND_5_output_0: 3cc68461
ONNXTRT_Broadcast_477_output: 40214c99
/model/heads/Add_36_output_0: 413ec2df
ONNXTRT_Broadcast_472_output: 40c95f3a
/model/heads/roi_gather/W_2/Conv_output_0: 3bc95766
/model/heads/Sub_7_output_0: 3c1191bd
/model/heads/roi_gather/f_value_2/Conv_output_0: 3df028d3
/model/heads/ScatterND_9_output_0: 3cc324fc
/model/heads/Transpose_2_output_0: 3e630e02
/model/heads/Tile_15_output_0: 3ba62e36
/model/heads/roi_gather_2/Transpose_output_0: 3db73ebd
/model/heads/Mul_39_output_0: 4035f62d
/model/heads/roi_gather/W_2/Conv_output: 3bc95766
ONNXTRT_unsqueezeTensor_382_output: 3cc3f190
/model/heads/Mul_60_output_0: 40363ad9
ONNXTRT_Broadcast_486_output: 40c95f3a
/model/heads/Tan_2_output_0: 41741523
/model/heads/ScatterND_14_output_0: 3cba039e
/model/heads/ScatterND_10_output_0: 3cc36438
/model/heads/Div_5_output_0: 3c747adf
/model/heads/roi_gather/f_query/f_query.1_2/Relu_output_0: 3c593ac9
/model/heads/Slice_35_output_0: 39997972
ONNXTRT_Broadcast_360_output: 3c010a14
/model/heads/roi_gather/resize_4/Reshape_output_0: 3db73ebd
/model/heads/Slice_19_output_0: 3c055ee1
/model/heads/cls_modules.0_2/Gemm_output_0: 3cfa9be4
/model/heads/roi_gather/f_key/conv_2/Conv_output_0: 3d01bd0c
/model/heads/reg_layers_2/Gemm_output: 3a4fa3fc
/model/heads/roi_gather_2/MatMul_1_output_0: 3cc3f190
ONNXTRT_Broadcast_484_output: 33a9226d
/model/heads/roi_gather/f_query/f_query.0_2/Conv_output: 3c8eb7f2
/model/heads/cls_modules.2_2/Gemm_output_0: 3d05f807
/model/heads/roi_gather/convs.2/conv/Conv_output_0: 3c945ff4
ONNXTRT_Broadcast_482_output: 3ccab1d0
/model/heads/Add_28_output_0: 3c04f28f
/model/heads/Slice_45_output_0: 3c747adf
/model/heads/reg_modules.3_2/Relu_output_0: 3b56d39c
/model/heads/Unsqueeze_64_output_0: 3c064285
/model/heads/Reshape_30_output_0: 3a86169e
ONNXTRT_unsqueezeTensor_374_output: 3c90beed
/model/heads/Mul_45_output_0: 3cea65ed
/model/heads/Add_39_output_0: 3c83eba5
/model/heads/cls_modules.3_2/Relu_output_0: 3c92a64e
/model/heads/roi_gather_2/Add_output_0: 3c995f0f
ONNXTRT_Broadcast_387_output: 3a9c1529
/model/heads/Mul_40_output_0: 3cb73577
ONNXTRT_Broadcast_299_output: 40c95f3a
/model/heads/Gather_16_output_0: 3c064285
/model/heads/Slice_20_output_0: 39c4c64d
/model/heads/Add_15_output_0: 3c04f4a9
/model/heads/Reshape_28_output_0: 3c995f0f
/model/heads/Gather_14_output_0: 3c03efb6
/model/heads/Reshape_22_output_0: 3c03efb6
/model/heads/ScatterND_8_output_0: 3cbf05b8
ONNXTRT_Broadcast_397_output: 3add5f45
